f733
0675
f404
065f
024d
fedb
fb8b
f43f
0378
fe9d
f3fd
0477
f2c3
f996
f913
fff7
096c
fde6
0ed7
faf0
0f8a
fcdb
fa16
07b4
f5d6
fd77
042b
f26a
0262
02e8
0862
059a
00b9
f309
fe18
0a4a
0577
f8ec
f851
0389
fe5f
fd73
097b
0340
02d6
fde6
fcb9
f138
0aeb
f6c6
0345
f1ea
f1bc
f313
0ddc
f63f
f35f
f7a1
0962
f981
0d4a
0976
0d11
0641
f3bb
f35c
f376
f10c
fe32
0006
f108
fe56
0667
f295
0c29
f59f
f296
0d1b
fc2a
04e3
f66e
ff3a
fc0a
f530
0634
f5e5
0c78
ffe2
0e01
02db
0729
0e93
0d47
0003
f526
0ad6
0cc2
fa4d
0ddb
0c35
03d7
f6aa
04c5
02e4
01b7
f632
030f
0f1c
f7dd
01dc
06d1
01ae
ffa7
fc23
f1e2
f626
f9ef
f56a
0913
088f
fb4a
0638
f0f7
070e
e71c
0065
19dc
f702
fb07
fb28
f057
fbba
fce2
faf2
e281
ffff
03ee
0cec
0b07
fb7b
0e28
fe43
fcb2
ef7d
03a2
0dad
0b9b
0abb
096d
efc7
0823
0291
0c44
0290
0681
f203
f423
0789
fbd2
0d81
01a6
005a
05f6
f0be
06e7
f8cd
ffb2
0de0
f192
f9ed
f6d2
f0bb
0e0a
0c29
f4c5
f1d2
ffff
0da7
f160
0236
0930
0522
04a3
f8e0
03d5
0d5e
06fa
07f8
f50a
01f5
f849
0e7d
08a3
075c
0aa5
0a46
f469
0680
ffc8
f101
02b6
f82b
f063
f22a
f22a
06aa
f45e
fb53
03fe
fc26
078f
f0db
f9d6
ff15
f680
0472
000a
f33c
0b68
0694
0611
08b5
0f4e
f870
0fb0
0dce
041c
0611
f781
0d29
f454
0670
f5ce
f7fb
0512
fe28
ffc3
049a
0025
0f0d
f1b4
f774
f73e
041c
fa55
f53c
f28e
fd9e
ff87
096a
0863
0ac0
05a5
08dd
02dd
0b99
0604
f319
fd71
f474
009f
0a32
f055
f3e9
f512
043b
0cc0
f087
f4fc
f921
fb7a
08fc
06c9
f11a
09f3
f6d1
0c79
f8c9
f5ad
04cd
04fc
010f
f835
f349
fc8a
f5a7
0ac4
0a60
f1bc
07a3
02c9
fea8
f2bb
fcac
f871
0116
0c5e
fb49
f859
f5f7
0902
0648
0905
f266
f24e
0079
f3a1
f995
f662
06fc
f537
fb92
f2ec
f376
0320
0d8e
fd8d
0e1b
0375
063e
fdd8
0a81
f173
0a1d
ed7a
0814
fc20
036c
05ab
0b3b
f111
fec5
f071
f566
f01d
ff03
07b9
f399
fc22
06c2
08f4
ffa8
f9b2
ea05
df53
fc8f
1bc7
fed6
f7ed
e8c7
0026
f176
e76e
e9dc
d16e
f370
17a9
f240
f0c0
e7f2
ec86
e9cd
f4d3
0126
dce8
f979
21bb
f474
f83d
fe4b
eeee
e694
e973
06e9
db35
fb20
23f5
ef46
0045
f88a
04a3
e6f9
f3ff
fa3d
d988
ecc2
2025
e0c6
f0d0
ddbd
02f2
f821
f138
ee7c
c3ff
f930
2793
db87
f542
ee02
1294
edc3
d338
f594
bdb4
df42
2f6b
e02d
eaca
cdf4
1506
eb9c
fd6b
0053
d407
ee29
1e2c
e82c
e7e5
e3a7
faa9
0180
f366
f240
de1e
e195
0953
fb29
e936
f318
05d2
0d7e
0626
dda5
cf34
ea5f
0da9
f822
e048
d48b
0272
e7e2
2056
fa92
c861
f718
1289
e84f
f063
ede6
11ef
d9d9
fbf6
03eb
d96d
fd8a
0bfc
0043
e7e1
e4d0
00aa
f04e
e4e8
0219
d837
e8b3
1b26
053a
ee04
e2db
e409
06ff
e3f5
02ef
debc
f938
1f6c
eef7
ede7
e16e
e6f9
087c
f719
f819
e848
f317
0c29
ff07
f7f5
e939
f384
fabe
0305
ed21
e640
f65c
17b0
f51e
e841
e6e5
01b6
0c5c
004b
0501
f497
fa1b
1199
072d
04d5
eaf1
00ce
ef83
f978
effe
fe71
fda9
0cf1
f6a7
fc72
079c
f690
0dab
f42f
f195
f235
087b
f7a1
07c9
0708
fa03
f14b
02b4
fef7
0229
0723
f751
fbcf
0eec
f849
f100
f115
f9ba
05b5
0049
fccc
f52e
085e
f396
0e58
050b
0c0c
0928
f766
0135
09db
fc6f
073c
057e
0478
fc5c
f419
f2c1
056b
f29c
09d6
fd56
0e0a
f132
fbaf
0e27
0d4d
fb4d
f6df
f568
0182
0e61
0d2f
0807
ff57
09c5
fb73
09b4
f6af
fa82
f485
f625
0f3d
f572
005f
004e
0fc2
0ab9
01cd
f64c
ed80
fe61
fd9f
fdb1
01ce
f5ff
11b3
ef8c
efcd
0403
f01c
ee99
1202
e37f
eeee
de59
f535
fd93
0750
083f
fcdf
02c0
0914
f9f2
f9b5
01f0
f0ce
f2ed
f41f
f441
dabf
0a98
23e3
f989
f2f3
f1c1
fb88
f642
f643
e74a
d75d
e664
3aa5
f22a
f60c
e4e0
df50
e45b
fe52
df5f
c0e1
f96b
223a
e693
e50f
e312
d48e
e94e
f46c
c8b1
b6a7
d121
2801
da1d
e7e8
e06e
da02
d0ce
00dd
ebae
a3a1
db9c
29ef
cf31
e5b2
e215
dc7d
d656
0e82
01d6
a422
d746
2c92
c652
c388
db48
e808
ec7e
0e68
08ad
9e96
bddd
2c54
e2a1
cd82
dcee
d6e3
19b1
048e
ef23
b950
b29a
3302
e1ff
c0ff
d28f
c6a9
18e2
0eda
e2c6
bd90
ad48
35bb
ef78
c04c
d83d
c533
2970
f60e
f41e
be91
cf4e
1dfa
f326
cadc
e0c2
ddae
1035
05bc
e3bb
b7b1
fa19
1ea9
da58
d2f2
c531
cd1e
ff19
ff46
ea78
d30a
f4f6
1267
f9b9
ce4e
d1ab
d00d
ef68
ef06
e300
d072
f2d2
26f8
f180
dbb3
e527
d01e
f821
d9ec
ed5d
d02b
fc4c
241d
f142
e314
d48c
cff2
e743
dd55
f120
e4eb
dd90
16f8
fc68
dba3
dd0c
dd7d
e561
e3b8
d6e9
d240
ea7a
331c
f168
e54e
fc66
df8a
e799
d75e
d69e
d63a
e8f1
3094
fd4d
ea87
f7bc
e116
f2c6
f1f0
eb4f
e258
f418
27e5
f211
f326
fa92
fc88
fb6a
0c94
f72f
f32d
ec5a
093c
f7c4
eee6
f766
efd8
f239
0883
030f
01e6
eab7
e74a
fd60
e9e7
05af
0a68
f08a
fe18
09ca
f2c7
f639
0a25
0274
0060
fd95
f060
0893
0252
0d16
0d4f
0177
ff9a
0437
f69c
092c
f092
05bd
fbad
f0a9
face
0575
0c5e
0350
f496
f6cf
091a
f5b2
f898
0f0c
0ae7
f8c5
fe7c
0799
f7a3
f17b
faf1
0d7e
0e4e
0c70
fd9d
073a
f6c2
0759
ed53
05fa
140c
06b7
f862
096f
f2aa
f248
03d0
f8ea
00ce
dbbc
ed6b
f3ab
01c4
e918
ea46
fcf9
14bd
fc51
0296
e67c
f673
ec55
eda4
2206
e205
ed2f
1aac
f51c
f3e9
09b4
ee5e
ee24
f9eb
03e7
d6a2
f01e
10f3
e725
dd73
049d
ce7e
e0ad
f7d2
0145
e388
d3fd
251e
d0b1
db68
f4c0
f2c5
b728
0b8b
0878
ca33
dbfc
1e85
cd60
e7c4
e038
e135
e670
30e0
1170
b8f2
f28f
21c3
bb03
d70e
ccff
f092
db88
2a4a
1492
a3c3
e374
1802
ba44
dc0d
cfa3
ea74
c42d
28bc
1b71
b6d4
e9a6
22a5
b356
c805
cbde
ece3
e14c
29ef
19a2
a8c7
f145
141c
da27
c860
c94f
e0ef
efbc
28db
26ec
8d21
f2c2
12c2
c7cf
d61c
caee
f3da
f31a
1e41
1f60
bc13
f555
2421
e543
d573
b655
e806
0495
1bdc
2b86
c1d2
fef3
1769
e6c9
c84f
c7dc
ef88
e862
0124
117e
d1a9
f1ce
15d3
e330
d83f
cac7
df87
e313
01b1
0bee
c2ab
fbe3
22c7
d8bc
cfe0
c7af
cdad
ca7a
e5cb
17a8
d3f1
102a
2a06
f33c
e87a
e551
cb88
c2a0
e3f6
021f
ef82
fafb
19ab
f3a8
c789
d04a
d209
ce74
d4fe
04f7
ea9b
1114
2dd6
f277
d4fa
e146
c232
d4c7
e373
f788
03bd
1e46
17e1
d7fb
ec54
c952
c5ae
c27c
dda9
c93f
04a0
138b
30f1
e330
0929
da36
d515
d8c3
bb9a
cae0
fa01
09e1
3405
f8b2
f9d4
ecf4
f365
e4e3
f245
de47
f2a2
f75e
25a3
f7fa
dd41
f4c5
f37d
e502
0a29
e980
e920
f62c
f6a2
024e
e937
07f3
e63e
df18
f296
034f
f770
ff11
0c92
f128
e2ce
f64e
feb0
0aa4
ff33
ff7c
fa30
0ae5
00ba
f56a
f86d
0188
fd18
0810
07bd
0c46
044e
ffe9
fe92
febe
074c
0a5e
0317
f2ec
ee1e
1720
f32c
05c5
f4ea
f3b7
0152
0e51
f957
f9d2
fe4f
0145
07d7
df0a
f79e
004c
f835
f68d
f68a
fb6f
ea1b
2042
f27e
e04a
015e
0505
f48b
fdfc
fd1b
04d5
e334
0d80
0905
d9e7
0ced
d824
f0ac
edb4
df5a
0fd0
ef00
1c7e
0e90
be26
eec4
dfb8
e205
f6bd
d544
037a
141c
1d0b
eac4
e8c1
fc19
de97
d955
e3a4
e610
e4e9
1378
2bc9
eeff
d7d7
0f4a
c966
d1b6
e68d
e381
f645
15b6
2659
d9cd
cfbc
fb83
c06b
f39e
da01
efda
e410
1af8
136f
ca72
d3fe
0f4f
b2f0
f2e4
d397
e6c4
fdf4
1c58
2249
c854
dee5
052a
ba9a
e731
cdaf
f1e7
efef
1787
2b02
d33e
fa4d
fa40
c108
f66e
e123
ece9
0354
325e
1b7b
ca95
ec67
f638
d2df
0af5
d478
0473
04bb
24a6
270a
d13a
ea26
fb4b
cbe6
08cf
db63
e7db
0fff
1504
1c64
e6dc
f7ed
0b5a
d33c
156f
d187
fd1a
06d1
0fa0
116d
dea3
fa8c
fc70
db43
0af7
c6af
fb60
f473
1ec5
0bcf
dc1e
0c59
1de1
bf4b
0d26
c4ae
fd89
060c
0081
0e7a
e5ec
141a
1cbe
c2a0
fbf6
ca5a
ec36
eee9
00bc
1086
ed18
0f9e
19d6
d128
ee68
c32c
f59b
0d2c
eba4
fc19
fa61
f321
28ad
d6d1
f827
d992
eeaa
1602
e95a
e652
1185
008d
3169
cbd2
f617
cc44
e79f
0b23
e810
d202
0972
0783
207a
e7aa
fc46
c7e4
e9d8
0e27
c13c
e19c
1e97
06f7
39b2
e525
d4d2
bd64
e14b
fa59
b696
a012
1fde
0fad
2b84
d9a5
dc06
d32a
e091
d789
d9a3
cb78
1ad0
1256
0604
ef9e
0153
d855
ebd0
c1cc
ee64
e99b
0357
1337
0836
f5bd
f884
e4d3
ec17
da10
ec5a
fd5f
f2a8
031a
fe2c
0699
04ce
ebc4
f5ee
f029
f680
0970
fc44
f2e1
0d53
fead
0778
081c
0602
f1d0
061d
0c97
0322
0e1b
f1bd
f793
0d63
f937
f694
f28e
f578
0d4b
f24c
f4e7
0047
0daf
04f2
fa3f
e4dc
07ce
f786
0232
ea0e
e54b
12a4
e854
f13f
f42c
0062
052e
ec98
1838
f7f8
d469
d9fe
ee8a
edc4
e0a7
d3f5
1119
02c0
3143
fc5a
cb24
0647
ed48
d8bf
f48b
c3e3
05f0
04a8
3438
0558
c38b
e4da
048a
dd0a
e4b8
f2a6
042a
14c0
1dfc
fd0b
c5c2
e665
09e7
e337
ca83
ef90
f2ac
178d
210d
f9d8
e3e3
020b
0b1c
e72d
c357
f36c
d0ce
26a0
0eec
fec5
f207
f208
fd09
f047
dfe6
f296
d815
23b9
1409
fdd7
f2bb
fff2
ef60
ea87
db41
e6bd
ee84
279a
185f
e13f
f839
f508
f365
ef1f
eba0
029b
f248
1270
1fdc
ec69
fcbf
dc0a
e453
feb4
ff71
0a4e
fc0e
2cc3
049d
ec27
06d2
f07e
d94c
1775
0439
059b
0c8e
16f1
1386
de56
ecfc
f0ea
d16b
10c1
e654
2211
fa71
2fe7
0395
ea0e
0005
ed25
d216
196c
ed68
17b0
04af
1ad1
1551
f0df
fc4e
fd6c
cf9a
145a
e176
17c2
f215
31fa
103c
fe3f
072e
f65a
d8d0
19e3
c55d
1d5e
efaa
237e
fa34
04df
12ab
0130
d0a6
12d7
d35e
0da8
fbee
1a34
f98f
1735
0ea8
1f95
cb9b
13cb
cf53
066d
f9b1
00f7
f12c
024d
0ddf
2d65
c24e
0bb6
ccd8
0bb7
16f6
f1fe
f66b
13b4
0907
1f81
b60b
0244
c752
faff
217d
f80c
cf5c
1131
1ba9
23ea
b8aa
ffcf
c581
0027
132d
ebce
d3bb
1c29
1f16
26f2
db12
e675
cb9c
e757
1e44
d44b
ba9f
3a4c
1d6e
2e8c
c367
d1d8
ae06
c0e4
034b
b7d7
bba3
141d
2d52
111e
d277
e88b
caa3
c422
c103
dae7
c9ce
00f3
2783
f8d1
ef52
fffb
c9f0
cbff
d37e
e7e8
d553
dce7
1c45
036d
e600
ff24
f069
debd
eec5
e984
0793
f1e3
1165
0c1c
fe21
ec00
0373
0226
005c
06c1
f16c
f77e
fe78
ff7f
f18e
fdc8
0261
fe81
ed73
f2b0
116a
f80c
0738
f439
0a9f
fef9
e21f
e612
e70e
f5fb
fc29
e143
1092
ef6e
1b3e
e7a6
dc16
e40c
f37f
f534
2acb
f552
c3da
e2c3
090e
dc92
d21d
cdd1
f64f
114d
1fee
138e
d2f1
faa9
e960
d39e
ce26
e2ea
e9e2
119e
2931
13fb
e11b
f4cd
0ddb
d7e1
ba0b
e737
e3d3
02b1
17cf
0324
e06c
de52
078f
dfe1
cb4c
efe7
d53d
07ab
18d5
1532
fffe
017a
1ffb
df54
c8dc
ec99
d9b0
0627
1c8f
fec8
f79b
0305
1143
fb5d
ca8f
edc1
cc95
0f08
107d
0255
f790
f0cd
1ead
fc24
e8ea
f83f
e129
0524
12dc
eaa7
0f3a
e948
0a62
011e
f08e
f78b
d5b5
117a
0850
df2f
0452
eb95
0580
0064
f716
0b79
f737
13d2
191e
cb25
fd83
e388
0054
0132
fe7e
1cc6
ee31
fc4e
0c79
d968
0e57
e9c9
f4bd
13b9
16a5
026d
e29f
1b89
0b16
c907
051b
e660
e86a
01f7
2479
1114
e44d
1299
1bd0
d0e5
fdb2
e779
e422
2093
23e6
246f
e553
0591
12ab
c8a5
ff57
f1b2
ec30
11e5
17d2
0f29
d019
ffb1
0b53
e176
0e7e
f8f9
df4b
1270
09a8
23a2
f6e5
fc05
0fe4
e086
ff13
dd8e
ea3b
f684
0c02
0892
07d1
02f9
fe05
f3dc
184f
f6a5
de59
0247
f4eb
02cb
0d1d
f9a1
03d7
fb06
1e82
feb5
df0c
016a
ec94
0fd3
189d
fcba
f718
fc0d
0425
01c1
f29b
08e5
dbb7
11b7
0110
f043
dccf
1db1
1993
f7df
e154
f6d5
c9d0
fea3
f78c
ccc6
c4cb
28bc
2a73
f9a3
c9e2
0b1a
a824
c084
e4b4
a943
d6c4
0b6e
43db
f85e
c3e7
ebee
a5f1
a581
a6e4
cba6
d308
ef97
31b4
ed36
b8ba
067e
c0e4
ce60
e3ad
e505
ed29
fd11
3257
0329
d0de
f7ae
c95b
f28d
fc54
f318
0471
e3ad
0b67
046d
ea31
07a4
f722
08c5
09a2
feba
076e
0255
fa8c
f805
0998
fbd2
0588
fd43
020e
e889
1106
f7dd
ecc9
04df
0d2a
f21d
de9b
e0d0
eea3
115a
ebc4
e9f3
e16b
f4b9
1996
dbb0
ea39
df37
eef9
037d
1543
0168
c9ae
c873
0f93
c9cb
cca2
c397
fb1a
1cf7
1d9e
0ba5
a765
eceb
067e
efb7
c3e6
e7cf
e847
17f1
1fdf
0769
c017
dd3c
16bb
df79
b373
fa63
d90b
1f91
28ab
f5f1
d9e3
ea06
25d7
fc7a
bd43
f6bc
cd72
0db7
0894
f419
f00c
ed80
1a7a
fe31
cc01
de83
c0fc
1a1c
03a2
e93c
0a0f
f2a1
1e4c
090f
e54d
f013
d0e3
0457
0a49
fc65
137f
f1fc
3348
fe52
f4c8
ffcb
cf16
0ed0
12d7
e956
1a64
f1d1
1e33
0368
f4a0
fede
e77b
11e6
180e
d953
170a
f510
2eaa
01d8
0711
fc5c
eec1
0675
0dd5
d6e3
09a4
e94d
14d5
f32f
187e
ffac
e875
04c2
079c
be02
f573
d8bf
07a2
f4a2
226f
0344
e126
10ef
260f
c575
fd62
eff3
064b
f6b7
42b3
17a6
f035
0153
1d26
ad57
f757
eb04
0001
0b80
3e65
2672
dd6b
0044
0516
d0cd
0248
df34
0547
fe12
40ab
2005
e6d1
01b1
093d
ccc9
0644
e11c
1baa
0657
2a33
1b12
e2db
fc5d
02cd
d7b0
0d86
db4d
1844
027a
0b18
182b
f399
f6d1
092c
ec9e
0793
cfd8
03b4
0a95
0c5a
0ed7
ffed
ece1
faa2
e809
103e
dd3c
0d3b
0649
045c
1206
fce3
fc0c
ecf1
0492
1814
f0a7
f12c
0ccf
edec
0d6b
faa4
fa20
ef65
0136
1e97
e894
e740
1019
d2d7
0de3
dc2f
d03f
d705
19b5
26ea
efee
e516
0e41
b851
d6af
c464
bae9
a9f3
0007
3f0c
f570
c362
fa5f
ac4d
a58d
a009
ce25
b85d
fd50
49c6
cfc9
d4d1
f8d5
b72b
ad62
d920
d41e
d5d4
f6f6
2db2
f64b
c912
f13a
bb90
f9a8
e873
e563
ebb8
ec99
1be7
0946
e759
03d6
e26f
ffe1
0bb8
f08a
fb28
fbe2
053e
f8ad
0a25
f81c
04fc
fe89
ed33
e935
07e6
f629
ff08
0591
12af
f4ee
f705
f805
fda7
fb5f
f0ef
f07f
ea3e
e6ee
221d
d286
d7cb
dfad
ee79
fc3b
0acc
e94f
b1bf
dd44
2bef
f3b8
b5e8
d2e4
00eb
1d61
331f
f6c9
ada6
f616
1999
e452
cd40
da5e
e05b
153c
2245
0881
d9a8
ea60
1627
037c
d50a
f1f5
dcfb
1485
18a7
0214
dec1
d6d7
2c88
02b9
e56d
ec55
ddb6
0a7f
124b
0272
eaf2
e452
2637
0455
de23
ed3e
d957
ff70
0a17
e270
0c57
dad6
158d
0e14
e30a
0139
c020
079d
0854
f349
03a1
eaba
169a
0762
f14e
fe65
dbfc
1276
f274
e644
0fd7
e81f
15aa
fe19
ef34
f8cb
d841
0f28
f59b
ecfd
1559
f193
29b0
0944
0b3d
10c8
f1e6
085d
08c2
c9f6
1432
e344
206e
17fe
f9e7
0844
f8ee
0425
00ee
e2b9
fd54
e270
21f6
fc73
0fea
085b
0410
1667
0e5e
bdb9
e4c6
d89a
11da
fbfd
29fc
18c9
0b10
0c34
1618
bf4b
e43b
e875
1ac0
ecf2
2c40
2986
fc13
1386
1b5c
d6ad
ed80
cc95
346c
fdd4
1b89
1f80
fabf
fae4
0c47
deaa
e85c
c950
1a48
f5b6
fffb
2180
0209
fc55
06a5
e757
ff94
b8ea
2140
fffb
00f2
095b
f336
0a8c
1728
f942
0265
bdd6
117b
159b
e9ba
1545
e811
fa78
197f
ed02
13a9
cf58
1549
08a6
ecfa
009b
e0d8
0075
0ac7
01f8
2332
e5af
02f3
1101
ef4f
190d
d67b
e9eb
fd06
04cb
1758
ca3b
f6b5
1d16
d98d
0fe1
c9c2
e15b
c3fa
06e4
48c5
befa
e58c
1cc2
c02a
df0a
9d76
ab55
9234
f014
4d3f
c758
cc53
16b6
ba8b
92bf
a28a
a0d1
bb4a
e220
62df
a707
b2d6
fb01
ad4c
a534
d0c2
d2b1
e7d9
eef8
2824
c70f
ca79
00fb
b7c8
edc4
f05e
e379
e115
ef6d
1c06
df03
d531
1ff3
ea7c
08bd
f0b9
ff03
035d
02f5
eea2
0872
12c9
0915
e749
f14a
fe6c
dff3
04f5
f0bc
e456
f8e8
1ed4
f489
dee6
f1b9
ee52
040f
fea0
eee6
e3bd
e62c
0df5
e08b
d5c0
ccef
fc3f
08cc
09c3
c894
b302
c7e5
3b22
de18
d9f2
dc34
f1be
08de
2865
f216
c2d4
eae5
1a1b
02e2
c0f6
f1c8
d4e9
18d6
0ed9
ebb3
cb40
e6df
276b
07d6
df00
eafa
e735
ff32
1097
da4b
e64c
eec1
0b2d
19cf
e79d
fddf
eb1d
04ff
fe1e
f4da
0278
f5c4
0158
13cc
fd5a
ed0d
ebd7
fdb3
f62e
e342
1146
ef9f
016f
141f
f2c6
f3e0
d513
075e
e50c
f7ad
0bf9
f24d
089f
1cea
00f7
0806
dad5
044f
ea02
f0af
1c93
e584
177b
18ed
feb3
ec64
f833
11fa
d051
ff54
211a
f9c1
1262
12d6
04bf
0268
e047
fc94
d618
e7c7
1053
e5ab
0950
010d
1302
03b8
1834
f994
ead4
d8eb
08e4
f04a
095d
f262
00cf
1699
2c61
0c3a
130e
aece
e62c
e3f5
3228
e48a
11bd
f997
2375
032d
2587
bc13
dab4
dbae
280b
df4e
02b8
14cf
19a8
0797
283c
e4a8
c91b
cb4a
2d60
f59a
fbbf
2439
0dc7
05cf
047a
ef99
dbeb
b141
34f2
ee31
fe15
20d8
f26a
095b
103c
f8ee
e3eb
b832
1a0d
fecd
ecb0
2024
eaf5
f9c6
0b11
f23c
eb82
bc48
251d
0706
ecd7
01a1
dcb1
f722
1072
f841
f7c5
c8b6
0b3c
1437
fa1d
0955
e568
03bc
18ef
fae5
196b
e2f9
fc34
0795
e9a8
0aab
b6e8
fb49
0764
f01c
2f3a
cde4
edbc
115e
e2a7
1b10
bb55
e885
de38
d775
4502
c6b3
ed74
0807
cb6c
fbdb
ad4c
96b9
95d6
ca54
67d7
c217
d1a9
fc97
c1c8
9560
a253
b226
ba20
ca3f
7e3c
9959
caa0
eedd
9dd4
9fb9
cb43
e10e
ceed
d099
4496
c00c
ef5a
fbf6
b412
d4e6
e352
ddd9
ecde
e524
1285
ed7e
1658
fd00
e73a
fa0e
0bab
fac1
e830
f289
f888
0739
fe59
fb72
efa6
eae5
1330
f073
e8d8
e3bd
e3e2
0afd
0c55
e2d4
f50e
0542
f742
f164
f814
e6b4
e813
edbc
1f67
e53d
cd52
f9b3
f65d
0cf8
1a3e
c4a3
adc4
d859
2a62
df9b
d4f5
d542
e5b4
fc0a
200c
efed
df4f
dce1
22d2
1644
d9a1
f193
cdfb
0a56
0065
f301
da39
d52c
17d2
fd8e
fb82
e804
cca3
0d48
0129
e3ca
f9f7
f343
128b
1aac
1325
f4c8
db70
e7f6
eccb
fb20
1125
06de
0729
1ceb
0209
f913
ef3f
e3a9
d9dc
0834
29f0
fcd1
09b0
282f
0d3e
07a3
e3bd
e8c0
c62f
129d
21f8
f7b1
f8fc
1c5a
129d
f077
ddc0
e9ce
cd3a
046f
233e
f0ac
0c04
248a
1d54
08b8
e7a8
d860
b74b
14b5
2c35
ef85
146a
14f7
1230
0c86
e75e
e3c4
d9ce
0d2a
303e
f963
0fb4
1714
fcf7
fe76
15ca
ca70
f6e3
d8d9
2411
0166
21e7
0448
f7ee
04b7
4112
d90c
1f14
ac9e
0ccf
edce
24c4
ed4e
e634
f270
4a3a
e2a7
1509
c8b4
ed45
bbcd
3d1b
ce73
f2d2
f548
2af6
0c20
23a5
074b
d33b
b62f
48a9
d2f5
f222
084a
f8ad
fd62
2289
1302
d3c4
c1ed
3f3d
ee66
0c86
265c
ebb2
0667
1ae1
f687
dd11
bebf
206e
04e3
1460
14e4
e582
0bf3
164e
f5ad
e141
d64b
1f89
06eb
0900
1e8e
dd12
ff74
2132
f4ed
da26
d8df
1cc7
13c9
01b3
1750
cf97
f6fc
008f
e8d9
fe29
dae1
1401
17c6
036e
256f
ca6d
f2c3
0189
eae8
f924
f516
12d9
0e17
ec80
2c57
b8f0
e5f5
d68a
d3e2
3e0e
f04f
d910
1cf8
da1e
1010
96dd
d258
a8de
b55a
647b
d66d
c928
efe5
b269
a4e0
c931
d6c4
e128
bf74
6d78
a88a
c714
e7fe
bd49
b47f
df1a
fae9
da2b
bf05
48d8
c2de
e414
e425
c784
deff
14f6
e7c5
e3b8
f7e8
1e05
ebd7
0c95
068c
f421
ff4d
077e
fef7
ec74
f54a
077d
f591
fb0e
f7cf
fbac
f9c3
0ac9
013a
ffc1
f3e0
e7a7
ea7b
2296
eeeb
d7ff
f72d
0405
e05c
f9c4
c23c
e234
e1b4
296a
deb0
c4e6
e483
ed4c
ecc8
17ab
cfc2
be52
cfef
31ba
f1de
dffe
d30b
03b8
01af
06e8
dca4
ea61
de66
2d69
0fa6
048d
f4a8
d7c9
effd
d816
e5eb
f6eb
e48b
0540
0249
1810
f3ea
d950
d484
cfe4
ea30
1acf
fd85
06a3
22d9
24a8
0341
f2b2
be45
c3e5
0c3d
0bb0
0c7a
0764
2124
2d8e
0592
ee5c
c530
c297
0bdd
1f43
0cb5
08dc
2c7c
1882
0139
df3f
cc2f
d0ae
29a3
1dac
01c1
11f2
2592
2359
04bf
e85e
c0ed
d817
1f30
23bd
0e29
0730
1582
209a
0aff
d919
bd18
d57f
2668
3d38
f243
0dfa
1186
195d
fbf7
de0f
a66f
e3fc
2397
2711
fbc6
ed7c
1f3d
e9fc
ec86
26bb
b72d
11d2
cb44
2590
fcca
0b13
1ecd
e9bc
c378
3c4b
bdab
20fb
ad88
0017
d18e
02b0
0d88
f500
b0e3
4af7
db3c
094e
edd6
e7fc
b9e3
2c09
f2cf
005e
c8d7
297b
e5c7
04cb
265d
e2e6
dc44
401b
f249
0b93
de66
ef52
f2d4
1ee0
1dc4
d83e
d006
314d
eedc
18cb
f233
eb67
eafe
09f7
0d64
c7e6
dbc8
1eb6
0257
1b4f
07b3
eb23
f80c
051e
fe88
b872
e6dc
0b90
f67b
1dbe
13a0
d908
f28c
097d
ea85
b460
ee82
0e5b
1583
1cd9
1ba3
db65
07d8
e89b
e3d7
b388
0822
1734
1d09
1a6b
231e
cbf9
f055
e538
f34d
ba4f
13a9
0f0f
3002
1d38
1e72
d3ab
e7a7
e19a
d3cb
ea30
2d2b
eb19
2b29
f745
2846
bb5d
de8e
a62f
ac32
31d1
f404
ae44
10f8
d19c
d518
ed51
0087
df7a
c382
5a4f
cb09
b9a6
0bea
c603
bd21
e650
088c
f3ec
e58d
2b69
c57c
dd12
0596
c41b
ff1e
1673
f065
08b6
f16b
1118
ffa6
06fa
0db6
e9a2
f374
057b
04ba
02f9
01ec
fab6
f742
08bd
eed8
fca8
ff6a
0b9a
fea2
dbc0
eb7b
f07b
f264
29aa
f77d
d004
f611
ec6a
e8b8
dee5
d1e5
df95
e6cd
3099
d401
cb57
e81f
0634
e8a5
f351
e0f4
e879
ccd0
3dca
fda0
eeb4
d5a6
09e9
d8fb
f5d9
e55d
018f
e29a
3c3c
f967
0902
f357
ece3
c1bd
d6bf
f68e
0a9f
03bb
1a18
192e
1b79
0902
0147
a944
c6fe
0bfd
0d96
150b
10e6
1575
24e1
0a30
e792
979c
cb98
1236
1fc5
11c8
0db8
0b65
27c2
f14c
e0d6
b2ba
da11
325e
1569
0625
17e9
1088
1ce9
ef3b
dab3
b402
dd26
20d2
0155
1b3c
0956
19e2
1cf1
04cb
db7b
c718
e76b
3f60
2526
12c6
ef6a
fac9
21cf
fbea
c633
b26f
efb8
3aa1
2936
17f0
d585
0041
0b5a
0217
cfe5
b678
ffab
32bc
2c33
11e0
b720
10ba
e3c4
e44a
2a6a
bfd2
0e90
eb74
38ad
fe9f
b8b2
2f86
ffc5
aade
4abf
bd17
0ddd
d56a
fd10
e7c7
c930
118c
14ce
b477
4d6d
bea5
1d35
0483
e829
d348
0a9e
fdf0
24f0
b7ca
11b3
e30b
12a1
1d66
db2b
ead6
2227
fac6
1dfe
db5e
ed94
d886
0b74
2573
d973
ec75
2fab
07b8
3f91
eb3d
ef62
f714
09aa
fe90
c664
e812
260e
f565
2e13
fd05
d4b6
f6ec
ff69
05c5
dcc5
ece5
14a5
0b5f
2a74
0645
d7f8
0708
f12e
0231
c669
fa64
003c
1bd6
3a09
06e9
fac5
eb56
d1c7
05e1
aa06
19e5
fdfd
1eb0
362e
2e9c
e2ea
dc5d
cc44
0034
8d39
1b73
0b17
31c3
19e9
33ea
e54a
ce75
c346
e3f9
8002
4125
db0c
27a3
08ab
3d80
c949
f518
c8e7
ec65
afa4
23c3
bfa7
2c7e
be93
fdf4
e308
2ca2
0ab9
e6c7
026f
ebee
eea3
146b
a3d9
e1d6
ddfb
1b92
fbfc
e9bf
2b04
d7e1
ffb9
0141
dd84
0341
03a1
0bc1
020d
f628
ecba
02ee
01a4
f524
f747
f4d7
119a
f61f
f6ba
f6d3
f95b
03e5
0494
ed9e
f806
10a0
fb0f
f927
f144
e327
eef6
fd45
0ec9
ef86
efbd
f9b9
fa75
edce
e8cf
d717
f27b
f7b5
3243
fd18
c49f
eba0
03ff
d16d
0186
dd14
fbf3
dcfb
22dd
eea1
f5cb
df90
00cd
c8d8
d528
f000
0874
e4b0
1e03
f17a
27db
0b08
e454
a493
d303
fef4
198b
0b48
16a7
e795
2737
1a77
f4fa
a477
cd08
29b8
0be0
2fce
0eb8
00f3
1fb1
17d0
fd20
b0d5
cd00
2c86
02f0
10af
fe12
f1f8
0b6d
0800
f0f9
bec6
d64e
21f1
1222
165c
f65f
ed67
13e2
04f6
e720
d09a
e9aa
2719
1377
1237
ddd7
f06c
0c09
072d
d162
cca6
f291
4387
1e7f
1604
dfdc
e26b
fa32
0f43
b708
e7bc
ea70
45aa
33e8
1f27
c5c9
068c
fc0a
e260
cc84
d16b
0e34
2c83
360c
17de
9b41
18de
fc11
c4e0
3bdc
dd23
17f8
f08b
1c71
fb41
ab61
26e5
0565
bbc8
522c
e292
1d0d
e6cf
fea9
e16a
b567
1c61
145f
af7b
30ff
e329
04b8
0fd5
d637
f452
f95d
1707
260a
c024
0b80
d3eb
0e38
28bf
c29c
0dda
092b
01e3
3bd7
d298
ef1d
ee8e
097f
2c4c
de6a
fec7
1e5a
ef30
2e14
e795
e334
ed54
024e
16a6
ec25
e66a
07ee
f77b
2746
fd2d
d24c
f69f
e8b3
1267
de8d
f0ee
f9d3
ff40
2ab4
f7e5
dfcc
fafb
d995
11d0
dcd0
f8e4
0f65
f4a9
1339
18dc
dbf1
fbf8
c201
0b66
caf5
2436
f2c7
fc78
1089
253c
d91a
d3ce
c109
093c
bcd9
2ee1
fecd
fceb
04f8
27a2
dd64
ea6d
cc52
e6fb
a3d3
412a
e476
ff0b
e356
22a5
bec4
0e1e
d79f
da14
a547
2683
faa6
0a66
c12e
035e
ded5
3272
efb9
ef5e
da4d
f2f4
f612
087c
b220
d461
ec56
3003
f994
ec28
08c1
c006
f0f4
0637
dd36
ef2b
ef96
1bf3
e1fd
f58c
f7d2
f0c0
f4c0
f845
e104
ef92
ed6c
e93c
e67d
e735
13f8
f2ca
f68f
eeaf
e8d3
07d3
f57d
f78c
0b8d
f2ac
e62f
f28a
06cf
fb17
f158
fad2
f7e4
fa80
f3cf
dd81
e0df
fb3c
24a1
f74f
d34d
d690
1a4c
deae
fce2
f7b8
f026
d1ec
289a
d14d
10af
ecb7
f893
c274
fee4
2b74
041d
ba40
2605
cfaa
1aea
2046
f9ea
b38a
d8b9
1e54
f7f2
0165
1145
e531
1006
10bc
f68f
d608
bd8f
2e3d
ef39
197f
008f
d900
2446
1eb8
f367
d63f
d73e
2dc5
f762
093a
ea33
c9b2
0ff8
1578
e4ae
e022
e603
2589
f4d8
fc8f
f4cf
cdd6
1257
08e0
deb6
f627
de6b
31a7
140e
1959
eaf1
dec5
08e0
1fd5
c675
e88e
ec3d
3257
21de
15b0
ce7e
e728
07ba
fe85
c62e
08e0
f3b8
351a
179d
243a
a446
0fdf
0093
e9ad
dc8a
f8b2
1bba
2e54
1bf1
0ca1
a344
2d42
fbfa
c58e
30aa
09b8
09f8
f922
11c9
ed95
a802
2a43
fec9
b192
5185
090e
fc3a
fcc2
e71b
055b
d121
151e
07dc
a7bf
2e63
f1ac
0695
1340
eb1b
185f
eb79
10fe
1478
b0b6
feea
fd29
0405
3c49
d0e6
ffdd
0e58
126a
2e75
d71c
d3cd
f08e
07a5
303f
e77f
f27d
0e90
0400
2786
e545
d272
f53f
09b6
2e71
e416
e787
202d
e800
28d1
fd61
c56b
e8f6
f53e
2e27
ea32
f963
2d27
f502
121a
0278
d7bc
eef9
de53
2097
029e
05e7
1ab4
ea7f
06d2
14dc
d2b5
df01
f566
0a7a
e337
1793
0a4f
e977
0894
1f5e
d434
e676
dcba
04a0
e9a2
1d8d
17b2
ce43
e82f
321d
d715
efcc
eb89
fabb
c8e8
3245
1b83
e77c
cfa9
25dc
e3dd
0835
dae4
e046
c379
1787
fa8b
e613
96cd
0fad
e3e3
3d7b
cd62
e622
d4f8
ff36
fa21
ff9c
b15d
e6cd
f642
352c
e909
dd76
da5b
cef9
e95b
e19e
ecd6
fed4
fd90
0966
f144
f894
f1e4
f555
f33f
f6fe
0398
f633
0598
ef15
ea2c
00bc
1858
ea6d
110f
f81c
fa57
f634
f2ad
eb53
1b64
0a49
01d9
0abb
05e4
054a
edca
e75e
0aa8
f11c
04b6
fad8
d7a4
e310
22f6
e468
c8ec
ce14
0452
0e64
034f
05b2
f80d
ce88
157c
dc52
f658
eedd
e318
f492
11b0
098d
f77d
aa7f
ffb2
cfa0
15eb
2111
c6a5
fabe
ee05
0a22
dad3
105e
fa34
bc45
06a9
0ffd
dc1e
fd2a
e480
230d
ecf4
0d49
fe42
c65f
02dc
161a
e9c8
fb97
daef
1dcc
d706
1afb
fffb
ddc8
f9be
1681
dfa2
f350
dad9
2392
f8ab
0a40
d886
da4c
00b8
1a2d
e45a
f45f
dbf1
2d30
0775
1c0c
d1ab
dfb9
ef3b
2464
c3d7
fd25
eaac
1bad
1c37
2aba
c73d
e90f
f482
007f
da98
146f
f377
1c94
1955
327b
bb54
1297
ff4a
c767
0ddb
1dfa
1074
1474
0c09
2221
b139
2171
fc4d
b65c
2d36
1357
0dd0
01fe
e88e
fa7c
d3c8
27b7
ef0e
b534
447b
0312
093b
11e7
e715
0c19
d46a
1e5b
f507
a281
34e4
0f46
fe11
1dc7
d5dc
1115
000b
00b8
069f
bc9f
ebdc
fd14
f2ef
3299
e68a
0ab9
09ed
08dc
2b5a
e8a0
d44f
fbc5
f036
3aef
e89b
efe4
1f84
e9dc
19b3
f08f
bac2
f5c1
0a38
219f
fbd7
ef96
3138
e334
0321
06c3
d38b
fdf4
0ac6
15a6
f781
0366
2d2e
dd56
008f
04a7
c659
eb36
1623
0598
f578
12de
334c
d42b
f545
0086
d3dc
e88c
0987
07c7
f883
1c95
21f4
d82e
f0e8
112a
dffd
f42b
ff20
f7a4
f451
1506
1eeb
d221
dae7
2e39
da39
f480
0fc3
f8df
ed52
0d70
0fd9
db35
d10f
1676
c2fe
25b9
fc44
ca63
ff19
07f5
eba0
cc78
a1f7
f5f7
e3de
417e
c29c
d2a6
bfc7
feea
e34a
f82f
c6a4
dee8
e2ec
4765
f06e
feaa
cb7f
d04d
d693
bf83
d66d
f4aa
f511
08fe
037f
e292
e843
dea9
ed43
e1c3
e6c1
fe93
f9bf
07ec
f9b3
0384
f12b
0c2b
1283
ebe7
f730
01b1
0687
f339
1cf9
f0f4
f58a
044d
f708
fcac
ec79
e567
06fd
fd81
0ea3
fe87
e6b4
eb32
ef63
e6ed
c22d
d6d0
e3d8
0d57
1626
f037
fff6
b91c
0b89
fdbf
f7fd
fd9f
f5fa
2331
0dd0
f1d0
f6b9
ad53
137a
c134
11d8
1790
e138
14fb
08dc
f9e5
ed63
f37f
ec6c
d692
0872
0a0d
d262
14fb
e4e3
0a51
e90a
034c
02c0
d7aa
f95f
16f7
cad1
0d0b
d09b
1f37
b9db
1869
f2c8
e283
02b0
165d
dc98
0384
c879
2049
d800
141f
e6b9
ff32
09e2
1c6f
e2f6
0141
d89a
266e
caab
1a2b
e561
02f7
09b9
19ca
e639
141f
de0b
0807
deeb
2661
d605
0c42
1695
005a
daf6
1f53
df91
0382
e7e4
355d
b7c7
0cdb
0ecf
d181
fdad
1eae
f1fb
06f5
f6bc
149a
c986
2840
fb54
a35d
3f9d
21d4
fca8
f8cc
debe
03ee
e8b7
12d0
d98b
a7d4
33d8
116f
f41f
23bd
dd4d
039e
fe10
0f50
f601
c56b
0aea
12fa
f0a2
42ca
d9a1
1040
049a
f65f
00d3
cde8
c6bb
04eb
e32d
3b85
debb
eba6
157f
02e4
287d
dc4c
b3bb
0198
f8fd
1e9b
e972
ed52
1b06
e12a
104f
01e6
c75d
f54b
0b4c
0e98
f7da
0b8d
2641
e979
04fe
0792
d915
0301
11c8
168c
07e6
ff02
2174
d440
de66
0043
c90b
fb75
1d6f
089b
0eab
f7d0
2295
d56a
ee59
0de3
e14c
0cd0
1cac
0458
0377
011f
0ea9
cad4
e45b
18cd
c782
070b
0e51
f6c6
0129
ff21
042f
d75a
d458
0606
c6f8
0924
082e
f242
0fbf
0a1c
f4d2
edd3
b9a2
0024
ec11
29e1
16d4
d6c4
04c6
f878
e64b
dacc
b6e6
ead9
dc8b
4b24
ce52
d8f9
ca69
f7bf
c34b
c4bd
aeb0
d131
f3b7
451e
c6a1
e434
b3d9
c66b
d5fb
c1ef
cb29
f1b6
f0f0
151e
dac3
f069
e626
e074
dbbb
e30a
ecb0
f447
f767
03b4
046a
0234
0843
fea4
061d
f42e
0ee9
f4ff
f989
e809
171e
ef66
ef5f
f85b
0422
f860
ff7e
e331
f3f9
00dc
1992
f007
e5a9
e580
efbe
f0cf
e37e
d0b9
e61f
23a9
3ae6
c9b3
f660
c2ef
e3f4
e134
f187
03e0
cc6b
34d8
35c4
defc
ff19
a6da
0e2e
c3af
db84
1c5e
d0ab
308a
09b4
f454
08e3
e997
f7b8
dcdf
f4dd
1a3e
afc5
1091
f690
0e4f
1300
f336
ebf3
dec8
f054
1a1f
d026
11e3
f611
09a1
e9e1
0a3d
eead
0368
f5a6
1ff1
dbcb
1028
d958
23ca
d253
1af8
e8ac
1112
08f9
258b
e535
1310
c4a3
1920
cf71
2984
e95c
1b25
1145
286f
eb5e
0fad
b2ef
f44b
d2ac
3a1c
cc3c
0a87
0f67
f36c
fb4a
2245
cddb
00f6
cd4a
29de
d2d0
175c
0b65
db99
1971
2717
c81c
0871
c18a
1404
e623
3231
eb07
a3e9
32c5
29a5
da60
1eb6
c7ba
0ad7
0b5e
0b34
f43f
a807
2df5
05a0
c991
3c7f
dad7
0485
039e
fc1c
f1a3
c72e
0aa4
0822
dfd3
2689
f22b
e9b2
1171
f3c7
0e9a
d7d2
c9f0
fdf3
fa21
322b
ef00
e23a
fd91
0524
0e9b
0d04
cc71
0df3
21e6
0eb9
05b3
fb17
fcec
edb9
fcc0
fc30
d9a9
02b5
0ca3
129f
0a6a
0d96
0857
e3a6
f6e2
0426
dece
0625
22b3
010d
f947
0d0d
066c
e96c
ef83
1075
e116
00cf
0a57
f6be
007e
0830
03ee
e191
f632
0bcd
d9fd
1371
1b39
f769
0770
faa0
fd7b
ed62
e80e
1a41
e9ea
0ded
171b
e877
0a42
06ec
e4fc
f1c3
c52d
150a
dd25
1df5
1d90
dc14
08b3
fe49
e8fc
eed2
b172
00b8
e04e
3506
eafd
dcfd
166e
fd6c
f696
0a30
a53c
de80
e00e
598f
c19e
cb44
d7e1
e897
f9df
9ccf
c1a9
e3df
e578
3b19
d1b0
dfea
cb96
c2e4
f947
bbb6
d969
04a7
e5b9
1768
e118
ed11
f9ba
ec41
ea0d
ebf6
de66
055f
0c46
f712
0127
ff50
04b1
0964
f9e6
fb66
0c62
fef3
fab9
e7f7
004f
ff27
e580
001b
00f2
f60a
e7ca
e491
ff50
e277
23b5
e843
e72c
f8f2
15dd
f59d
d7e2
cf46
f38b
0787
471e
d88c
0f7e
c996
d8e0
bed6
d116
f528
c53d
17d5
30f8
e510
19f6
b5f7
f234
d5be
e1f8
06d3
ae8f
3200
2288
db25
23f1
c036
dcb0
d80b
d588
1359
a076
27c0
0191
df57
20ea
e024
cfba
f101
f47d
0ba7
c3f2
1993
fc3c
f888
06fa
fdd5
d5ca
f20d
ece1
1bd3
e7c7
1916
ee03
ffd8
f4a0
0d71
c46f
1dcc
fd2d
315e
0777
10b2
cc34
f63d
db82
2819
ceea
2483
f44e
2b54
ead7
15bd
cfde
e2ac
cca4
2fc8
d58c
21bf
f32c
fe93
046e
2b84
cfcc
e815
d2ec
24e9
ec9e
15d1
063d
d713
05e8
21ba
c67d
05d9
e54b
3b0f
f4fb
1db7
ec4d
c39b
2f50
222a
bff4
0c6d
ef48
1b9a
ff73
efe5
ec97
ccdb
2b06
08a9
ccf8
26d2
f7cb
fee6
0b7e
e973
0661
ecfe
fa09
0805
fa33
27d7
f942
01b7
f90d
f36d
0b06
e68a
d9f0
12d5
0c85
1681
0b56
144e
f023
e714
f3cb
f745
e21a
0c94
1d02
e8bd
0fb7
1576
ffca
f03b
ed03
f115
d1f8
03aa
1371
efc6
070c
0fb1
f8ad
e7bc
ea27
f1da
eefd
01f4
21bc
ead5
13cd
09d8
f5a9
fc15
fd56
04b7
edeb
fc53
0fe1
f651
192c
0bda
ec3e
fca3
e5b7
015a
fada
19c4
1ba1
e268
0979
fabd
e352
f5b0
d6ad
0cbf
ed6f
23a0
1ca1
dd12
0ec0
f76b
e547
f0bf
cb5f
fd54
ed14
326f
101d
c841
148e
ff41
ba77
f228
cb09
f160
e76d
472d
cb8e
d6a1
0f55
ed75
c773
f227
bed7
ec3a
e581
44f2
b7e9
bcb3
ce27
f5cf
e21e
ad31
d1b9
e069
efd1
306c
dda7
e092
d13e
d7a5
fe10
dee0
ec6d
f6d6
03bf
05e7
f32f
0275
e034
e077
fe7b
f996
fd6e
f916
0cf1
f3ae
06bf
0c0c
fe18
f2ef
00c7
ffe3
0c60
0e3b
f7e5
e754
f6ee
e918
023c
f875
0449
e472
f0d3
f2eb
fa54
f425
1967
e750
13e1
f9ff
1982
d2a8
d924
dd4f
ee47
f3c7
32ae
e906
f81a
da0c
d598
c9f0
cfa2
f16f
d5b6
28ff
243e
e7d2
045f
bdfa
f484
ced8
dc66
0411
b150
1827
2b00
f11a
1aa3
d566
df05
eb29
d5f5
033e
ba93
0fee
14f1
d065
2ab9
df86
d927
f6ea
e1df
0d8a
ea64
150b
ff9a
c496
1f21
fc21
cc2c
f46e
e8a0
05b8
f34d
17f2
f7b8
bf61
1bef
0b66
d131
1243
df95
1c39
095c
14df
f75c
c1d6
1009
0831
cca3
0a62
e204
2d01
f79f
21c4
d5b3
c091
f7ea
2f97
dbf9
13cd
e05b
0dc1
1269
2414
c3c7
d90c
fd69
3955
d7c4
030e
cbd3
fc39
1764
1018
d5fb
d677
04dc
2498
02d4
f980
d98a
db22
140a
23b5
de40
f54e
06c7
0e07
0131
f2d7
d9c9
ee2d
0659
1360
f617
1710
feee
2308
0b8b
edbd
fb8b
e8df
feda
0462
f887
071a
0a4f
0af4
f38f
f668
eb5c
023e
eada
0fe8
1d8f
0486
0094
2602
eb5b
f846
fc65
06e1
ee06
0db7
141b
fbd9
feab
0fe1
db8d
ed2d
efa8
02e0
fb97
02bc
1d4d
d946
0292
1c0f
ceba
fc2a
e376
fffb
ffad
08e8
197a
eaa2
059b
0311
d4bf
f999
f1d8
fbcc
07ec
0a8a
15f6
db93
09bd
15a9
c98e
02ff
f50b
0c08
f68e
07e4
26df
eab3
10b4
07ec
c5b3
0775
e728
00a1
0240
1d80
ff11
d121
0bf3
090a
c5c4
193b
ca3c
fc2c
ed4b
1dc1
048e
ca46
1c20
f8d9
ab07
17f9
df6d
ec92
f9c1
27f5
d531
b8a7
173b
dcb8
d289
eb89
e477
d327
f327
4456
c314
cbca
fce6
cc72
dde9
adeb
e6dc
d124
fe8a
297a
df42
f529
d025
e324
f724
e0d3
ef18
e452
0750
04ff
fc2d
f3d9
e979
fed9
0563
e00f
ff6a
01ed
f975
ffd4
f121
0ad0
08ac
0749
06a9
fea5
08ed
0836
f22a
e2d5
faea
f65b
f6c6
fd9f
fd59
f54e
ef59
f82e
f938
01ec
0e26
f106
0f1e
f5f3
fba7
d5d0
e39c
c9bd
eabf
07ce
20d9
ea0d
fe86
ca0a
c58c
b7f5
cddd
e3eb
d730
1246
2ee7
d7af
fa7d
d0c1
dae7
de55
d596
0c1e
cf65
085a
286c
d367
1215
c718
c524
03b5
e8b8
f838
eed8
18cd
1c69
da54
145e
c7d4
c5de
0e55
e79a
10a8
f4d4
3213
1928
c589
1245
e242
d82c
0819
cd1f
023a
01e0
1f7a
0b3c
cf63
19bb
eec4
e208
0d8e
db1f
1333
0894
2116
0914
cdce
1d0b
0c62
d6ec
fc76
c937
2211
036b
0cf0
ed82
d112
124c
202f
e9e9
f961
d8c9
2816
0ed6
240d
ef82
d7eb
0e39
26e8
ec33
e763
bd11
17d3
0c41
08ef
d260
d2bd
f49f
2e82
0acd
e7ab
cc8d
0e8a
0b8b
03ca
eb9c
e885
fa14
3579
0509
ed42
ecb7
f98b
0a7c
fdc0
fed6
f04b
0445
23f9
0ed4
ea56
e3bc
0842
0412
0c06
071a
f90a
fe0e
2a65
facd
eae8
fb6f
f447
0152
fcb0
1e05
fd09
05a9
19b4
d710
f6e9
e375
f2bb
087e
ffe7
1b35
f117
1665
0a2a
d4d5
ee66
ed61
e920
0c72
1aa6
2455
f613
1663
1da6
c1ec
fd9d
e44c
feac
0c5e
1c28
1141
ecec
1221
06b4
d8bd
0d08
000c
ef18
fbc5
1cb2
1e1f
efba
063b
0281
c35e
f729
f2a5
f80c
f23d
2690
1554
f378
093e
04ce
c1cb
0b3c
d48e
03e2
fc34
2212
0003
d631
152a
efdd
bcf2
0e34
e3fc
ec4d
e99c
253c
e941
dc7b
181f
dcd6
c439
06f7
e47b
f3d1
0c3f
2c7a
d935
c9ad
0ddd
cea6
e37f
efb6
f593
dd0c
fa26
33fa
be75
ce34
0927
e69f
e4eb
c59f
01c5
f0e7
f9af
1f35
fe1c
fbdd
ef68
f974
f51b
dd09
f5fe
ffc4
f2c3
fc76
f228
ec37
1440
f4a6
03b5
ed41
051f
f67d
103a
fd1a
eca2
084e
0607
f876
f5f8
0504
f0f9
0242
f48d
0a14
f6e2
0728
ebf5
ec43
fc02
07c1
fc07
ec86
f1c3
0171
0497
eedb
e7da
e9e3
e427
d769
efca
d7d0
fc64
0b6d
1f1d
df53
f32e
dc6e
d384
b9cd
d798
e981
0fd1
053e
2359
caf7
fc7f
b6e6
d6ed
cb29
ed5b
0cc1
04f9
002a
10f3
ce94
fc85
b1ae
e257
ed89
e2c7
0be3
15f5
17ac
151b
c094
fa62
bda2
dda8
07b4
ed74
0c2c
07c7
0a16
2152
d26c
13e9
ef16
e340
1606
e092
0136
0e51
0ee5
187c
d331
15df
0117
f83b
f993
e139
1936
1641
18d0
0b8b
dc9f
1acd
fa41
ea38
ffa9
dba3
1954
06a7
25f4
f442
cd85
170f
2376
eae2
f616
d9de
1f55
e9c5
1445
f320
da26
11ac
1de0
faf5
02bc
decb
2079
e3a1
fc66
ee0b
e7d0
1136
2d3e
fd7f
f7db
d6fd
036f
f3cf
0a01
f168
dd3c
fdbc
37f4
fb42
0937
e5a3
0e3a
fe20
f527
f9c8
f31b
015a
3d45
f6d6
03c7
f6a4
00e5
f989
f9de
fee8
f5bf
05d4
2304
f7ce
f74b
e332
03db
0844
030f
08ba
f69f
0b03
1dab
e646
ebdb
e9eb
e6b3
0b34
1190
051a
f4d9
ffd8
1a16
d3fb
0142
e504
e6e9
1006
14a0
1717
f7ca
fea8
0e0b
dc69
fde4
eb42
f3ec
14b7
21ff
11c8
f62b
050c
1206
bd93
09ae
de14
0074
0387
1a98
fd00
f0d4
1072
064c
cb0f
13b2
efc7
004f
10a5
1338
fb76
f581
1f8d
dd39
b716
fb26
ecd0
faba
e7d4
2106
efe7
f6d2
2977
f305
be23
0f40
dff1
decd
e0dd
2bc5
ddfb
e445
1d91
dba6
c0d4
f889
0aa3
d8f5
1223
38b4
c5d5
e034
116e
e782
de01
ccf2
0ef3
d3ef
fc41
1f7d
d507
d2a2
08dd
e1b2
dff4
db58
f7ab
02bd
0648
0bde
effe
02d1
0533
f57d
f611
d6dc
db03
0753
fa99
f3c0
eeb5
0481
f75b
ee37
f7ee
0523
fdc1
0cd1
086f
0129
f3fe
f4ac
07c2
f2a8
fc90
f0ea
fef5
051b
12a1
ebfc
1006
f5f8
07ea
ff7d
0af1
fffb
028d
f27d
f4d6
fd9d
1478
05c5
d908
fe04
ee16
e6bf
dfd3
d5f5
0575
0701
3285
d280
f135
e47b
c612
da5d
f926
d09c
fb70
1607
0ee8
c2e0
0abc
d027
f3ae
d42e
e3ee
fce1
3b34
130d
1879
c500
e804
b4b1
eb28
d4d1
dfa7
fb49
2f3f
1a52
17f5
d512
005d
b85a
eb2b
07a4
eb0d
0729
0aaa
1b38
0292
ded3
f63c
d7dc
0819
fb51
d7f8
0ffd
0c46
115c
13ec
d17c
0b26
d0e2
edd4
01e1
ec90
023d
0a10
1ed7
0263
ea76
0908
e77a
ecf1
fa8f
fb31
24c6
fab8
237e
0d4e
e02c
0229
ef5a
ed76
02b9
f8bb
1fbd
e8e4
04ae
0655
f84a
0d47
fa66
ef38
0e15
f66c
2667
c4cd
0970
f64b
f24c
2040
0ae0
e6e5
18e8
f583
17db
cf0c
f629
0398
e2ba
1583
01d0
f525
1fa0
ebd7
0c39
f189
eabe
0058
ec15
0f6d
02f7
eb87
1c43
eb9f
0a14
0898
ed75
0575
f5a5
0f6b
fbf8
0451
0daf
e24a
0bff
2056
f045
0362
f111
1e3b
03a0
f2ed
0456
e8a6
0d77
1e00
117f
0593
045a
0d02
fbb8
eaf3
0577
e8e4
ed61
1cc5
1c11
1990
0be4
18db
e851
dc9f
0e53
e911
eb29
087d
2704
1b82
14c9
0fd6
f231
d1eb
fa2a
d3de
f56d
fdb2
168c
09b2
11cf
13da
fc8e
b309
faa9
fac9
f8c5
f351
2010
e0c1
0d2b
00bf
e0c8
c47b
0a27
03f2
f6f9
d405
19c4
ef98
049d
1955
e153
ad5f
00e2
0f37
f40a
e4d8
13c5
e350
e7bd
0987
c35c
aecf
e688
160c
ddb1
ff76
1444
c787
fee1
16ea
ca07
d198
e1f8
1ae3
ecfb
0654
1b77
e7d6
e72f
021f
f481
f613
e151
0d3f
1275
010a
ebfc
eb0e
fe1d
109e
f257
e574
fb9e
e462
fc94
0b65
f614
f208
f6ed
f21b
0324
0a95
fef5
0825
0e89
fbd1
08e0
fde7
0f41
0ece
0708
09e1
02d7
fc23
049e
f4b6
0b30
f054
023d
0a31
f07a
fe32
f4bf
0b1d
fef3
e9a0
efcc
0ba5
f17a
019b
f50a
e77f
f238
dbcb
d518
e233
e5e1
2e03
d796
f03d
fc60
e6e1
ebee
0313
c152
f0d1
f461
2a69
cfb1
09cc
d6bf
12ee
cc71
cf4f
e7ef
2d66
06f3
2f4b
cc8a
06f8
d353
1071
c8be
d92d
ef5b
2ce7
ece7
1a8a
cd98
f3ed
bdbe
1b31
d44c
de9c
fc4f
0c88
fce8
20d0
ecf2
ecb3
bbe9
25bd
e873
f264
06e9
11a8
0a5b
ffc6
dd5e
f9e2
c333
f874
fc0c
0083
21b0
fa2d
f715
0d94
f0d9
1568
cc91
0427
f40e
f603
173f
eb43
f0c9
0f74
ed4a
07fb
cae9
09e9
0867
f55d
233d
e7fe
0415
0c12
ffe5
273a
c4d1
f3f7
1898
e88b
16d7
da34
fee6
faca
de57
0b4f
dd89
f1d4
1c02
f4f7
3087
eead
e90e
099d
ecdb
09e1
efb9
f02a
206e
e272
17fc
e8ad
f81e
f481
efc5
16d3
d6f9
05e2
2598
edb0
0cc4
077d
ebef
0628
f128
0a0c
db0b
fb70
19a5
dd5f
01d7
229f
f378
0a8c
fbd3
1130
ec4b
00e3
138e
f066
0021
1e4d
f878
ff89
0c7f
f822
dc74
ffc9
167d
e41d
f603
1b80
1106
06ac
1f93
04d7
e83b
d1fa
137f
fcef
d2c3
008f
17af
f8d8
09d1
07dc
f81a
c2b4
12f7
006e
e2d8
08ea
13e9
f6e0
1e94
0a35
e4e3
c4eb
0bdd
04f3
cf62
e5a0
1e5c
db78
1316
fbd3
d4f6
b4eb
05e3
082f
f0c1
d989
2980
da3b
fc01
f8ee
d574
d38d
f90c
14f5
e5f9
da8b
09e7
d086
fcd0
0f6d
c3e4
b994
0c42
3068
e971
f047
1082
df02
ee02
0fbf
e752
cef6
ee49
15fd
fc2d
0160
0e6e
eb9c
05a1
fce8
efef
e427
ec05
eb28
e051
18d8
e6f7
0b5d
0a9d
0086
ed11
e7e3
d12f
e23a
fe40
00a6
f292
0766
f914
fcc9
0f71
0263
f657
0955
05b5
feff
f74b
0e54
0041
ffe0
ffd2
0cc1
f107
f0bb
0e81
f1db
f5eb
0d41
f3b0
f842
0255
08ac
05fb
f4ea
f1a9
f9d2
fe5a
fe13
f77e
ef9f
0e60
ed0a
019e
ff22
f677
d611
d1b6
23bc
e3bb
031e
f9de
0c27
ee83
d316
eed7
e613
c9e8
25c5
cf06
f74e
f085
292f
ae82
0010
db21
0959
c1e0
2c46
e7d9
ebd0
d640
37a4
aaba
ff02
d3a2
f848
c276
2f53
efea
f534
caf2
31f3
c1c2
0680
dc96
ec57
d6da
23cb
e1b0
f7bd
c49f
30a8
ce9a
0ea1
e83b
d9f5
d510
2e60
fbcf
05d9
b855
231c
f076
16d6
f459
ded0
d3e0
2b1f
fc90
0eee
d2bc
23c0
faa1
0559
fd55
e570
ea66
20cc
0247
0f54
b816
0d80
0328
1442
f283
cbe0
e16d
2d7a
eeb4
1219
d08b
1888
10f2
0c27
0af1
dd71
ed87
23d9
f573
29d6
bba2
130f
0da9
ff21
0485
baed
f67c
1ca9
e979
1db9
d503
16bf
0f32
eaec
fb39
db0f
e93d
1f7e
edaf
12d9
d50b
1d06
19e2
f6c0
ffb6
e5b4
fb4a
093f
f3d5
0e92
d169
1054
1554
fe81
e0cb
d2fa
f43b
050f
fb49
1014
d422
036f
2679
078f
e440
f92c
ff05
0305
0018
fd16
d8ed
0769
0f73
1a38
ce25
0cfd
060f
e688
0857
0e2a
c96b
fbac
0e30
06b8
cae9
062c
ebd6
ef67
0ee1
fe48
bae7
e5c5
1fa2
1dde
bdce
f6ed
0344
ebfc
09c3
01a7
d179
d834
068d
3332
d0b4
e9af
0ef0
eb41
fc8f
fde3
cf64
e36e
ec75
2acd
c36e
dfe2
f5ac
e8c2
eb53
10f4
c406
e17c
dee7
2d1a
d106
d692
f3a8
e0ae
f76f
1923
c378
abce
dcab
1d9b
f7bc
f2e2
23cb
ea71
db33
17c4
f48f
dfa1
dd94
fbc9
f4b9
0726
249b
ebf8
f94e
de16
e7de
e43f
d3d1
ef4b
ef80
09a0
1053
f857
ee78
e9aa
f857
edbc
f462
e6a3
0302
08c4
fc92
0375
0f8b
024e
063a
f471
f86a
0bd2
0b0c
feeb
008c
0ec9
f8ae
04f7
0633
f149
f2f3
f934
f4d7
0c3c
f57e
0ef2
ff58
09ad
f444
ff71
0dca
f26f
f7ea
0743
fb67
127b
f624
050f
0043
e66e
ff5d
0896
e189
db71
d484
ff73
e9da
0707
fba4
0d5e
d9d1
eba7
d731
cefb
caa1
0611
dc40
0408
e55d
1b4b
b8ba
0880
dbc4
bd9b
af20
0fb6
c60a
dde5
f179
1edf
afce
1356
bd89
c129
c970
2d7a
d524
f999
e71e
1eb1
c022
21c1
ba23
b04d
b417
2864
d95d
e044
e4fe
1da5
c0f6
223a
b352
cde2
aa8f
3d6a
c779
ffb3
c71b
34a2
d1a6
2bee
bde8
b8be
a5e5
2dcf
d143
fa7c
d5dc
25c9
cd96
10e5
a7ba
a8bc
b8bd
425f
df37
0694
e213
201d
d14c
1747
afbd
a2cc
b30c
37df
c4a8
1496
e796
2ed1
d91f
0e74
c1a5
cd4d
d2c0
3cb5
c2c9
1c49
d6ab
3033
d9f8
1705
bd74
bd6d
d329
2b8c
cbda
0b86
e059
1432
e40b
1469
c0a1
c8bc
e777
1513
cca1
09b9
dba4
28b7
f733
0ecb
aa44
b17c
ddb1
0ace
d2f0
1701
db72
217b
fe98
0f38
a6fb
afff
f063
0c1a
c36a
0a65
d783
258a
0321
2810
c33e
b587
d8c4
f7b4
b873
0683
d801
14c6
ee74
2635
bb6f
c53d
e589
041b
b4e2
0d27
cf09
0982
fc1a
2dc9
c0ea
d326
cbca
0b1f
cba2
f176
c89a
1e18
e623
25ac
bb9d
e576
dda4
fb9c
c4af
f2df
cc0b
fa12
f2fc
370e
cdea
ef69
d6ff
dba5
cb99
fb50
d6c7
f546
d52d
2c76
e971
e28c
c598
f53a
e502
08fd
e319
fe0a
d153
25b7
ee7b
f7d9
d0ec
d9af
e5f5
2988
e501
d68a
e417
091e
f870
f69c
e5f8
fccd
e8e9
246b
e9fd
e932
d833
0532
f3f5
070e
0ffc
0425
f95c
061f
ffc8
ef34
df00
ea9e
f1ac
029f
04a8
06d9
fc2c
f693
f368
0c01
ef01
eb14
ff61
0c14
fae2
fd14
fab5
0638
0fad
0333
f432
094e
fbc9
0b67
0686
fa87
f478
f322
0bda
0c5e
fb7c
f4c1
0c37
0b36
f3e0
071d
f73e
063b
fa3f
00b0
0776
08a0
0ea8
06df
fe66
0f32
f85b
f95f
f0de
f395
0882
0e7b
fa7d
f07c
eca4
efa5
098b
0275
0366
e5fd
ec21
fb8c
f83a
eb8c
e46a
edbe
eaa2
eccd
f4ab
eec1
e292
248f
f096
e47d
e183
0f30
d8f1
e45d
f50b
09c2
e47b
1c50
d1f6
dc8c
f3a3
01e8
c78f
d247
f94a
0700
de02
2cf6
d7ba
d3a1
d901
00c4
b426
d6ea
f5fe
1310
cfaf
26ab
ddaa
e18f
ded5
f107
b33e
de0c
f845
22e6
d1ba
16ca
ba34
cf2f
eb47
0422
a743
ee55
f6f6
1c67
e274
1d13
cfb1
c9a8
e27a
f39a
a901
e9b0
dce4
1f2b
d90f
249d
cbff
cf72
d45d
fa6c
ae54
ff86
f84a
1b26
d12c
265d
d1a3
c19c
e711
f37e
ad9f
0ef1
f508
2400
d336
23af
c7f1
bc1e
d2ad
e4c4
a153
fc9c
d636
1e87
c53b
2ff9
d256
bb46
cc05
f2a5
82ef
da7e
ecb1
29e7
bb50
2a14
b457
db0d
c6c8
f036
8d29
0a3c
e686
3fad
a5c5
1d23
bddc
d4e6
c77e
edc3
8f17
f260
ecd1
2d43
ab44
0e17
e2ae
de5e
ce78
ed01
a3cd
f33f
e35d
2be9
bee9
13f6
c526
e33c
c812
0682
a34f
da43
e883
33f2
d5f3
1810
dfb0
e943
d943
f289
bbef
dd72
ebed
1a23
b860
10c5
d452
ef32
d014
f23b
b486
0271
e1a6
030c
c7a3
3364
e4a8
ecef
e180
fb8f
cff4
0459
eff8
1227
da37
1f8c
dcb1
fbf4
ea53
eb22
d6e6
1411
eed6
1660
d79b
10c1
f961
e59a
fc59
ef78
f872
f5e9
eefc
0040
f4a4
1ac9
fa17
0107
0248
06a8
029a
0756
f205
f6c2
fa9a
fe10
f2b5
0606
f8d4
f6c9
f8f0
f958
f798
05d7
fb3d
f443
0265
04b1
fa2c
f64d
fa58
f2f6
f300
ff35
0abc
0f02
fb95
0d80
0c08
0c91
091a
f551
f161
0fa5
0401
0680
f6aa
0bc3
08b0
043b
f5f4
fb79
0d8e
f382
faa5
f7aa
f3b2
f978
fea6
037a
0352
f1fd
f48b
01fc
089a
0d81
0899
fcfd
030a
026f
f30b
fe99
f365
fcf0
0365
06d0
f051
f2fe
f681
f796
08a0
f696
0d4f
082d
0946
febe
efca
f984
0558
eeb5
f4ec
f4c0
0ac7
0821
0547
f1a1
f538
03c8
09e0
06dc
0075
f348
f537
ffb0
0a10
e48d
047d
0068
080f
f5c9
dcb5
e787
ebef
ff84
fa94
0cc7
f0d8
fe15
f4e0
f3b1
e1dd
e3c4
028d
10b1
ee3a
1249
f799
e8db
f8ca
03c5
db0b
daee
f8fe
1e55
023c
01a2
ea87
f754
eaa0
fe6a
ec8c
e6dd
ee28
11ab
01fb
f571
e886
dfc5
fc65
f2ce
d8c5
f067
05d5
1a6b
e488
01a8
ec28
eb58
e8b4
eeaa
de4c
d76e
e945
1647
f84b
01c8
f1fa
f562
f61c
edcb
d1d4
d89b
e964
1e3c
dcbd
f753
ecfb
f64c
f794
e324
e113
d332
ef52
2a35
e580
e234
d99c
edec
e26c
ea38
c9a3
e0ac
eb5c
3482
cef2
f1da
d3eb
f969
e82d
d3b2
d9f1
e2dd
eca3
1f13
ee87
ec68
e157
eeaf
fbd0
eeda
d71c
f101
f70c
2522
de32
d611
eb2e
ed6a
fac7
ddc5
d084
e50f
ece6
1c08
f620
d108
e53a
f93a
eb7f
f29d
dfd1
ecef
f5d4
126b
e30e
e6a4
f84b
f940
f6e7
f3a2
d808
cef5
ec86
1f2c
eb8e
e5d9
ea39
fdee
e4ae
f124
e2f3
e8a7
f657
0834
e4b7
0b64
eb9b
0426
e1cb
ff45
f5c3
dff3
ed76
0c5d
e811
fa07
eb6c
f077
df48
fce6
daa6
e0b6
ea6d
1e64
e505
0951
fd0b
f240
f995
ea9b
dca6
eabf
e859
06e6
e028
da1e
fbd7
f13e
f9a8
0980
0458
f3ad
feed
fdca
f5cc
ff64
0ad1
08bd
fb12
f380
0a54
f5d5
f1cc
f327
f282
0193
0368
0189
0402
0c83
053f
fc2d
f4f3
fda5
0644
0150
f3ec
024d
f2bd
f2b1
f37a
f6be
0a28
fd3c
0c4d
0b17
